00f6
0426
0398
0215
0654
01fb
0476
0408
0193
0236
0531
0336
ff32
0111
fcf3
00e1
fdcf
ffd5
021b
f8ea
00ae
0787
f985
ffc6
0613
fd47
0037
02f8
f68d
0090
08ed
f8d3
fffa
06c2
ff11
ffbe
0082
fbe5
00a9
03c6
fd10
00a0
030d
01aa
025e
0159
0049
fe2d
00c7
fe87
f280
fe94
ff8d
01cc
00b8
ffe3
fe29
001b
fe7f
f33d
fe9d
0058
010b
0030
0100
ffcd
010f
0187
fa99
022c
ff99
fda7
fefd
fc88
f8b3
fa4d
fd08
f985
fa8a
0025
00ca
005e
00fa
01e1
0187
00ab
0141
0129
ffe4
0141
0000
01fb
050c
036c
01d7
049b
03af
02f0
07f9
05cf
ffe4
ffc6
ffd2
fda6
f7c7
fa71
03b4
0972
06c7
ffde
ff10
ffc8
fd49
f61a
f984
00c7
03ab
0252
ffe1
ffb1
0009
ff60
fbcb
fdd7
033a
fde3
fe0d
06de
f9de
01f7
0135
f8b3
038b
0614
fcee
fd5f
0863
f799
021e
015c
f7fd
04e9
0117
ffa6
ff30
0335
fdac
00d5
0037
fd4a
013d
008c
01c2
00b5
0286
061f
04d5
0159
047a
03d5
ffed
fecb
ff95
fe89
fc8d
fdb1
ff3c
fd6d
fe58
ff89
ff7e
ffe1
febd
fd2a
fd8d
ff1b
fd67
fdd4
fe30
fb08
055d
008a
fae0
070b
041f
fc8c
ff73
fbb3
f942
087d
00ba
f92f
08ff
056f
fba2
fe34
ff2a
fdd1
0297
ff8a
fe1e
02fc
00f2
fe2b
ffa3
ff74
ff3c
ffd8
ff6c
fed4
0040
ff64
ff98
ffd3
ffd1
ff4f
ffa9
ff7e
fe94
ffec
ffad
ff7c
ffd4
0001
000d
ffa6
ffd9
ff8e
ffd4
0000
0028
ffd0
fcea
f894
fb95
ff42
fefc
ffc1
039c
07f4
05f1
fcaa
f76a
fb16
ff5a
fee3
ffdd
03bd
0862
066b
ff0a
fbd5
fe16
ff74
ff08
ffae
01ab
0448
02e2
034d
037e
00ee
032d
03d6
0066
00dd
0062
fdf5
fc12
f979
fc88
fa10
f7c8
fb7b
fd2b
fb14
fe24
0020
02c7
01b2
01b0
05ba
0442
0123
049a
03c4
02a2
fff7
00b6
0155
fb0c
f7a6
031a
015a
0385
0031
0083
0014
0111
fee0
fc20
ffcc
ff48
fe84
fd22
ff18
fbe9
ff5e
00a5
fd71
fdb8
ff82
fc6e
03b8
05d4
04e4
f9ee
f0df
f90e
02bb
04c1
0585
0586
06e6
06e5
f70c
eafa
f673
04dc
0679
0773
01d2
0377
0202
fd06
f853
fcb3
0192
032c
02e7
f987
f57c
f8cd
0894
109f
0aa1
fd9c
f952
fca7
fe1b
f99d
fd59
0904
1169
0aaf
f9db
f4bc
f7f9
fd0a
fa94
fc9b
03c5
07ec
04b9
ffd5
fccd
fee5
0220
ffef
fdc3
074c
00be
f825
0686
0056
f93e
02bc
001d
fd8a
086f
004b
f673
06c7
00b1
f8df
008a
ffe1
ff17
03d9
0075
fb93
0356
00db
fd0a
ff1a
feef
ff24
ff89
00ad
014c
0005
01aa
0226
ff7c
fed9
ff4d
ff85
0029
00e9
0033
01b7
026c
006a
ffb5
ffba
ffbc
0025
0054
ff5c
0057
004d
ff4f
fe82
fec9
fe6d
fe41
fe6c
feae
fe04
fdf7
03ba
04bc
0261
055b
0775
03aa
0391
047c
01da
fcbf
fce3
fe96
fba0
fbef
fe30
fdb9
fe1b
004c
01c2
0064
030b
0098
febc
03cd
03e5
0152
fec5
05ca
03e8
0276
006d
031b
0024
0112
021e
0181
0052
00c8
00c6
00fe
fd03
00ac
00a8
ffc4
02f6
00f8
048a
0171
0525
0431
ffeb
ffa5
ff43
0012
0018
00ef
0007
000b
ffbd
ffbe
fff7
007a
005f
0026
ff9d
ffc9
ffd3
ffe3
0026
0023
ffe7
ffb6
ffa6
000d
0013
0036
000d
ffab
0022
0071
003d
007e
fed2
ffd7
ffb8
0032
ffe3
ff6c
0085
0019
0054
ff4d
ffde
0030
0028
000c
ffe9
fff6
0001
ffdb
000c
fffd
001d
000d
fff4
0030
001d
000a
ff3d
00d5
0012
004d
ff5d
ffec
ffa6
ffe6
002e
0064
003b
0000
ffe6
ffcc
003d
ffee
ff53
ff8f
ff43
0108
002e
0060
ffd6
ffe6
0004
fff8
0000
0002
fffd
000d
0007
0006
ff84
ff85
0025
0076
00e2
0017
ffe2
ff9c
ffab
001a
ff34
ffc7
0013
01ac
00b6
ffd5
ff56
ffb6
ffcf
0059
0025
0048
ff5c
0007
0023
0072
000c
001b
004c
00a2
001e
fff1
ff1a
fffe
ffdd
0025
fff2
0065
0032
0003
fffd
ffea
0012
0000
ffda
0009
0018
ffc6
fff8
ffce
fff7
ffff
000b
001d
0039
0080
002f
00f7
fff9
ff9c
ff53
ff67
ffd5
00c2
ffbb
ff97
ffd6
ff64
000c
ffaf
0062
0058
ffbc
000e
0033
ffe6
005c
0003
0042
ffd2
ffb0
0000
ffe8
ffe6
ff1e
004b
fffc
0033
00df
ffc4
006a
ffe7
002d
008f
ff9e
ff86
fee6
00d0
0021
ffdd
000d
001b
ffd1
0029
0010
0021
0009
ffc0
fffa
ffde
ffd2
0012
ffbe
0037
0024
ffc8
0025
008a
0021
ffed
0040
ff83
ffc8
ff45
0008
0099
0020
0010
0019
00bc
ffd9
ffb4
ffeb
fee6
004f
fff0
0017
0015
ffee
000a
001e
0032
0013
ffc8
0051
fffa
0001
fff5
ffab
ffe1
ff74
0052
0044
fffb
ffda
0025
0095
ff9f
ffb8
ff2e
0062
0073
ffff
fffd
ffe5
ff7a
0034
0033
0034
ffb1
0003
0007
ffb3
ffc6
ff4c
ffd1
0030
007e
00c4
005c
ffd6
ffc9
fff5
ff78
ffcc
002e
000d
0071
007b
fff7
0019
0008
fff7
0033
fff1
fff0
0000
ffe6
fff5
0000
ffff
ffed
fff6
ffed
0015
0013
ffff
0009
0026
ffe2
fff6
0020
ffc9
0013
000b
ffe5
00bf
0000
ff23
0208
0022
fdc3
00a4
0068
ff10
001e
0007
000e
0010
000f
000a
0016
000f
0011
0007
0000
fffb
0003
fff9
fff5
000b
fffa
0000
fee4
0017
00d3
fd4e
ffdb
0323
fe9c
ffd8
016b
0008
0016
0007
fff5
0008
fff9
fff3
0000
fff6
0000
ffd6
0019
0011
ffd9
0004
0025
ffe5
fffc
000b
fff4
000e
0005
ffef
fff9
fffe
ffec
0000
005f
fffa
ff94
000f
0024
ff9c
ffdb
0022
0000
ffc9
0017
0050
ff87
001c
0040
ffb8
000e
0033
000b
0005
0001
0001
ffff
fffd
0007
0007
0007
0005
0002
0007
0006
fffa
0004
0013
0001
0005
fff9
000b
ffec
ffda
ffe9
ffd4
0007
000d
0004
ffb7
fff6
0042
ffa6
ffd1
0048
0001
0010
0026
0047
001c
ffc6
ffcd
ffff
fff2
ffe7
0004
001c
0054
ffd0
000c
00d1
fef3
004f
004d
ffb3
0022
000c
ffc8
0035
0002
ffd2
0034
0003
ffe3
0015
ffe8
0024
0000
fff7
000e
ffdf
fffa
0012
ffed
0009
fffd
fff5
ffdf
0017
ffe6
ffd9
ffff
000a
0033
ffd4
ffe5
0066
002e
ff56
001d
0066
ffad
ffec
001e
fff0
ffe6
000d
ffe2
ffed
0019
fff7
000a
001d
0004
0043
ffab
fff4
003b
ffa0
ffde
000e
ffc6
0026
0014
ffc4
003a
000b
ffd8
003d
ffe8
fff7
000b
0017
ffc9
0021
0028
fff4
fff1
ffec
0017
0003
ffe2
0015
fffa
ffe2
0011
fff4
ffcf
003e
fffe
ffc2
0069
ffec
ffbf
006a
ffe3
0001
ffff
0000
0024
ffdb
fffb
0008
0006
ffed
ffff
fff0
0006
ffe8
001a
fff8
0000
fff8
000c
ffc6
0064
001b
ff4f
0110
ffc5
ffc2
004d
ffd8
fff2
002a
0025
ffda
0004
0039
ffa3
0035
fffa
fff4
0023
ffff
fff4
0015
fff3
fffa
000e
000b
004d
ff84
0038
ff8c
0191
ff6b
ffdb
ff8e
0092
006b
ff75
0048
0046
0069
ff88
ff43
0082
0018
001a
001a
ffde
ffba
0017
0034
0043
ff98
0027
002b
ffa5
0020
ff9a
0111
ff60
ff36
004c
0067
0040
ff61
0030
ffec
fff2
0010
ffe0
007e
ffc9
001e
ffe0
ffff
fff8
0000
0010
0022
ffae
0012
0051
fffb
ffe8
003a
ff53
0087
fed7
01ac
ff7b
0058
ff71
004d
0091
ffd0
ffc9
ffd4
005a
ffb6
ffcf
0038
ffda
0079
feb8
00b0
0096
fffb
ff6e
fffc
ffe4
001c
0019
fffa
ffe4
0037
ffc1
0007
ffb3
0032
0023
0044
ff5f
0050
0062
0028
ffab
0000
0021
ffd4
00a8
ff1a
0038
ff3f
011a
ffec
0013
ffc8
0026
ff8e
00d0
ffde
0073
ff74
000f
ffc4
0066
ffd2
00ac
fe66
00ae
000a
007a
ff79
ffc5
ffc0
0011
0039
0029
ffcf
ff9a
00b9
000d
000c
fff3
0006
ffe6
ffed
003c
0040
ffae
0007
0038
005d
ffe0
fff5
fea7
ffd7
fff4
00d0
0025
0016
ff7e
ffd9
ffca
005a
00a4
0011
0013
ff7c
ffd6
001d
001e
0039
fffc
ffcb
fffa
ffd7
0013
ffe5
ff91
0012
ffd2
0120
004d
0053
fef1
ff90
0030
ffe2
ffca
ffbe
ffd5
0086
0020
0049
ff5e
fffe
000c
ffec
001e
fff7
ffef
ffff
ffdf
002e
fff2
ffbc
0017
0047
fff8
ffdc
ffb4
0056
0051
0046
ffe5
ffad
ffcb
ff9a
0028
ffe2
0077
002e
000c
0066
ffeb
0033
fea0
ffb2
ff9b
00b2
0078
fff0
0006
ffff
0015
0017
0015
001b
ffe7
ffcf
0064
ffc4
ffeb
ff22
fff4
004a
0069
0064
ffbc
0011
0065
ffcc
ff51
fec6
007c
0047
00a2
ff78
fffd
ffbf
0026
0036
00c6
ffe7
ffd6
0036
00a4
ffd4
ff72
fff9
000a
0149
0064
0023
ff6a
ffba
ff65
0008
0032
ffff
0028
0070
0049
0011
ff98
ffc4
fffd
fff3
002d
002f
ffe9
0009
ffe8
ffee
0000
0006
ffff
0006
0004
fff9
0001
0002
fff7
0001
000d
001b
0003
0004
0014
fffe
0003
000d
fff8
000b
fffa
fff2
001f
0003
fff0
fff5
ffe2
fffd
0001
0000
ffff
0003
0001
0008
0001
0000
ffff
0001
fffa
ffff
0000
ffff
0000
0003
ffff
fff7
ffe7
ffd6
fff2
003d
0003
ffda
000c
ffea
fffe
fff9
ffff
0000
fff9
fffc
0000
fffb
fff8
ffe6
ffff
fffc
0005
002a
001d
fffc
0021
001d
fffc
0003
0004
0000
fffe
0005
0000
ffff
0001
ffe7
ffeb
ffe3
0000
008a
0070
fffb
0089
006f
fff4
fff9
fff3
0002
0003
fffe
0003
fffb
0000
ffff
ffff
fffe
0000
0000
ffff
0003
0001
fffd
0000
0007
0005
0000
0000
0000
0001
ffff
0001
0000
0001
0002
0003
0000
0004
0003
fffe
0000
0012
0013
fffa
000c
0015
0005
0000
0004
0004
0013
fff1
ffee
ffea
ff5a
ff6b
fff2
ff64
ff7a
ffa5
fffc
0071
fed9
000a
00db
ff8b
001c
004b
ff9e
007e
ffe2
ffa2
00cb
ffd4
ffaa
0092
ff9f
0023
ffc5
001b
0037
ff6d
0038
0028
ff8b
003b
ffee
ffdc
0000
0012
0002
ffc8
001e
0019
ffe2
ffb4
003c
0045
ff45
00bd
ffed
ffbd
0051
ffc9
ffea
0012
fff6
fff1
ffee
0009
ffff
ffcf
0013
fff4
002e
ffb2
ffc0
009a
ffab
ffe0
0060
ffed
ffb1
004b
0022
ff93
0076
0013
ff7e
0077
ffc9
fffc
0017
0002
ffd4
0018
0027
ffcb
0015
0000
000c
fff0
fff2
0017
ffd8
fff7
0029
ffce
0000
fff6
0027
ffce
0028
006a
ff9d
0026
004f
ff84
fff7
fffd
0004
ffc7
001c
0002
ffe6
0030
ffdd
ffdc
fffb
ffe8
0012
ffd3
fffe
000e
fffb
0003
0041
000e
ffa4
00ac
0040
fecd
0041
001f
ff8a
0000
ffd2
0010
0036
fffa
0001
0066
0037
ff99
002f
ffef
0000
0025
ffd5
0007
0017
fffd
0000
0020
004b
ffdd
ffed
004e
ffb2
ffc8
0074
ffc1
0073
ff19
0086
008b
ff18
0084
005e
ff5b
0034
ffdd
0049
ffda
ffbf
0058
ffb8
ffc7
0048
ffdc
0015
ffe3
0013
000a
fff4
fff7
002c
ffd7
0004
002b
ff5f
008f
0063
fe74
0135
0019
ff4b
0089
fff3
0016
fffc
ffe7
001b
ffe2
ffee
0020
ffef
001e
ff8d
0036
fffc
fef9
0100
ffce
ffe3
007b
0045
ff53
0059
007a
ff2f
005b
008b
ff4b
0045
fff5
fff7
fff8
001f
ffcf
001a
fffc
fff8
000a
000b
fff5
fffd
0010
ffea
ffe9
0008
ffea
fff1
000b
ffaf
003b
0026
ffb7
003e
0043
ff9d
002f
0001
fffa
000c
fff8
ffda
001f
000f
ffde
0025
fff5
fff8
fff7
fff8
0020
ffd8
0005
0011
ffe7
fff2
0016
0022
0000
ffd5
0047
001f
ffb9
0033
ffde
002f
004d
ffcb
0000
0045
0010
ff9e
0032
001c
0012
ffeb
0011
0024
ffd7
0028
000f
ffed
fffa
0018
0005
fffd
0004
fff0
0018
001d
0004
0002
fff8
0012
fff9
ffea
fffd
001e
fff3
0002
ff4a
fff3
00aa
fdc2
ffde
0231
ff04
001b
00ee
0000
fff6
0000
ffed
ffff
0003
fffd
fffc
fffd
ffef
ffef
fffb
fff7
ffeb
0002
0004
ffee
0003
00bf
0037
feaf
02bf
007f
fd10
00ea
004c
fe9b
0005
0003
fff0
0000
0018
fff1
fffa
0008
ffeb
006f
ffd9
ffce
00ba
ffd9
ff62
009d
ffe7
ff87
000c
fff8
0019
0013
0009
000e
0002
fff9
000d
ff7f
fff4
0057
ffce
0003
003a
fff4
001a
ffe7
003a
0008
ffe6
0060
ffeb
ff86
0041
fff5
ffc4
0003
0007
000d
0008
000e
0011
0008
000c
000b
000c
ffff
000b
0013
000d
0017
0000
0000
0012
ffe8
ffe7
ffff
ffd8
ffd7
ffe4
fffd
fff2
0003
ffe4
fffa
fff4
fff8
fff1
ffe1
000d
000a
fff9
ffa4
ffe2
0042
ffe9
ffcc
0029
0048
ffe2
ffdc
0011
0015
0019
fffe
0010
000b
000a
ffeb
fffc
fff9
ffe0
0000
0007
ffe4
ffd5
0017
0007
fff6
006c
01f0
00c2
0034
0004
008c
ff7f
fda9
ff55
0006
ffff
0008
000b
0001
001c
0004
0003
000b
0012
000d
0022
fff3
fff4
0009
fff2
ffe6
fff6
ff66
fd86
fee3
ffe5
ffd0
ff73
0088
032a
0104
0014
fff3
0008
0003
ffed
fff3
0000
fffe
ffff
fff2
fff7
0000
ff92
ffb8
ff7d
002a
009d
0025
000b
fff1
0004
ffea
ffd6
ffe5
fff1
ffd9
fff7
0081
0021
ffe4
fff6
ffdf
fff1
ff90
ffcf
0020
ff94
ff66
ffad
fff8
fff2
fff0
0059
0081
0031
0003
ffff
fffd
000b
0017
000e
000e
0006
0015
000e
000b
000a
000e
0016
000c
0012
000d
0006
fff5
0001
fffe
fff5
0010
fff9
0003
ffee
fffe
ffc4
ff8b
ff73
0016
0003
ffbe
0041
0069
002a
0059
0000
001d
ffd5
ffe0
0009
ffb0
ffdc
0020
000c
fff5
fff2
0004
000a
0007
ffef
0013
0019
ffbc
ffa6
ffbd
0000
0000
fff7
003d
0063
002c
002f
001a
001b
fffb
fff6
fffd
fff9
ffd5
ffee
0031
0051
0031
0042
0069
0056
002d
0047
002d
0007
ffff
0012
0000
fffe
fffe
ffee
0002
fff8
002f
005b
002f
0005
0011
000a
ffde
ff96
ffc6
000c
fffb
fffc
0000
fff9
0005
fffb
0003
fff1
ffc2
ff8e
ffac
fff0
0001
fff3
0028
0096
0074
ffdf
ff9f
ffd8
ffb7
ff96
ffb1
ffdd
ffbb
ffdd
000e
0016
0022
0004
fff8
fffc
0005
ffeb
fff3
ffd1
ffcb
ffe3
0001
fff4
fff6
0032
002b
0004
ffed
ffcf
ffe1
fff9
0004
fffe
0014
0026
001a
000b
001f
000c
ffeb
ffdd
ffe5
fff4
ffed
ffe8
ffec
ffe9
000d
fff8
fff9
fff3
001c
0009
ffe6
0046
0042
0018
0007
ffff
ffdf
ffd8
ffcf
ffb3
fffc
0018
0010
fff3
0008
0009
fffd
ffe8
fff0
0003
001a
0019
0006
001a
0005
001c
ffeb
ffe4
004c
008a
005c
001c
001f
000c
ffa3
ff8b
ff8f
000b
ffe6
0008
ffeb
ffca
ffde
002d
001c
0018
0002
fff0
0007
ffc3
ff95
ffd0
ffd6
ff98
ffe7
000a
0006
0007
fffc
0008
ffe7
000d
fff9
fffe
0000
ffef
0006
ffe1
ffe2
ffe8
000b
0037
001e
0002
0000
0002
0002
0000
fff9
0001
fffc
0003
0018
0097
005e
fff8
0033
001b
ffa9
ffa8
ffab
001b
0021
0022
002d
0085
0040
002d
0066
0045
001b
0009
0007
ffe9
ffe5
ffed
0008
0016
0012
002a
0029
0019
0025
0019
0010
ffd2
ffb7
ffc7
0006
000c
0006
fffb
0000
0000
ffee
ffcc
ffdb
fff8
ffe3
fff6
ffe3
ffd7
ffe0
fffe
0009
0007
001a
002a
0007
000a
0004
fff8
ffed
ffe6
fff8
fffb
ffda
ffde
0033
000e
ffe8
000e
0004
ffe4
001f
002c
003e
ffec
ffee
fff3
fffa
fff7
ffee
ffad
0067
ffde
ffad
00da
ff81
00c7
ff6f
000f
0053
0018
ff84
009b
ff1a
0051
ffec
ff81
0073
fff5
fff4
0040
ffbf
0061
0000
0022
0052
ffa9
0004
ffb1
001e
0041
ff2a
0089
ff4b
009e
fffa
ff63
0127
ff83
006e
fdf5
015d
00e2
ff71
ffa1
ffdb
0013
fffe
ffdf
0011
0003
0032
0006
ffb9
ffc5
001e
0000
fff5
0033
000f
0037
fec2
00a6
001a
0058
ffb5
00a3
ff8d
ffb1
0057
ff28
00b4
ffe4
0060
ffba
ffd0
0096
ff6c
00c6
ff4b
fff8
000a
fff9
0010
0010
000e
0022
000a
003c
ffdf
004b
ffda
ffe4
006d
ff33
0075
ff89
0018
002a
ffe2
0053
ffc4
001a
ffc1
003d
0047
ff82
002a
0007
ffc1
0021
fff5
002a
ffe7
ffd0
0042
ffe5
0062
ffb0
002c
0051
ff41
0077
ff3d
006b
ffd8
0058
ffdd
0009
ffd8
ffd7
0066
ffc1
000d
0026
fff0
ffdc
0008
ffdf
001a
fff5
000a
0007
ffcb
0005
ff88
ffd8
00a1
ffd0
ff75
0023
00c6
000a
ffb0
ffa2
0082
005e
ff56
ff95
00ae
0029
ffe1
001e
fffc
ffb6
fff8
0066
ffef
ff97
0008
0022
fff3
ffae
0007
0097
fff0
ff5c
0065
005b
fffb
fffd
fff9
0010
001f
ffcc
000b
001d
ffd9
ffe7
0026
fffc
ffd3
0011
0048
ffd3
ffb6
000d
001a
ffd4
fff9
0096
0011
ffda
ffc0
009c
ff83
fff7
fff0
fff0
00cc
000d
ff44
ffde
00e2
ffe0
ff73
ffea
006b
000a
ff63
ffe9
00c1
ffb6
ff50
0033
0019
0009
ffed
fff8
000f
0000
ffc2
0001
fffd
ffce
0045
005e
ff87
ffb3
0069
0057
ff9f
ffe0
ffd7
000b
003d
ffdb
ffcd
ffcc
0091
ffde
ffcf
000d
0003
ffdd
001d
000e
0007
ffc2
0028
0003
0014
0083
0056
ff62
ffd7
00a0
0017
ffa8
ffe0
ffa2
ffba
0031
fff3
ff8a
ffd7
00a4
0002
fff9
0008
0008
ffea
fff8
0038
0002
ffd2
fff3
0017
0021
002e
0017
004f
0068
003a
0039
0054
001d
0044
fff5
ffb6
0075
fff3
ffa1
003f
fff8
ffc9
ffed
000c
0012
ffcf
000f
0019
ffe9
0006
000d
fffc
0003
fff6
fff4
fff1
0014
ffef
fffc
0015
0023
fff6
fff2
003f
ffe6
ffde
0027
ffed
ffe3
fff2
0000
001e
ffb1
fffc
0052
ffe1
fff6
002e
0003
0001
fff3
001b
000c
fffa
001a
0015
ffff
0019
0002
ffcd
007f
0021
ff9e
0051
000f
ff97
ffec
fff6
0013
fff8
000d
0010
000d
000f
0004
0001
0004
0011
fff8
fff8
000e
0004
fff8
0013
001c
fffb
fff0
003a
fffb
ffda
0036
ffea
ffd6
fffc
0002
0009
0007
0007
0000
0002
fff7
0001
fffa
ffff
0001
ffe9
fffc
001c
fff2
0005
0010
ffdc
ffc2
ffe7
ffbb
ffa5
ffab
ffdf
ffab
ffc4
fff6
0011
0004
fff2
0009
0006
ffda
ffea
fff7
fff9
fffc
0007
ffda
fff4
001d
fffc
fff6
0004
0001
ffff
0000
0004
fffe
0000
0000
0001
0002
0004
0018
001a
000a
0016
0018
ffff
0005
000b
ffd9
fffc
ffeb
0006
0093
0049
fff6
0045
0021
0001
0006
0002
0002
0000
fffc
0003
fffd
0001
0004
0001
fffe
0000
0001
fff9
fffe
0001
fffb
0014
ffd6
fffb
ffed
ff71
ffb8
0015
ffa5
ffec
0002
0005
0000
0004
0007
fffe
0002
0006
0000
ffef
0009
0004
0005
0012
0013
000a
000b
000d
ffff
0002
0003
0000
fff8
0003
0000
fffe
fffd
0001
ffec
ffee
fff4
ffa8
ffa9
ffea
ffa9
ffb8
fffa
fffd
fff2
fff3
ffed
ffea
fff7
ffeb
ffef
0000
0004
0002
0001
0002
fffe
fffc
0001
ffff
ffff
0002
0000
0000
ffff
0001
0003
ffff
0000
0000
ffff
0005
0000
fff8
0004
0000
0000
0003
000f
0012
0000
000c
000c
0009
fffc
fffb
000d
fff2
fff9
fff0
0003
005d
003e
fffa
0043
0012
003f
0048
ffdf
ffee
ffc8
0040
000e
0016
ffcb
0047
0034
ffec
ffd2
001d
0051
fff1
ffc6
ffcf
fff8
001f
002a
ffda
ff9d
ffa5
001e
0043
002d
0039
002e
ffd8
ff69
ffc8
0026
0032
fffe
ff8b
0010
0003
ffd4
0010
ff95
fff1
ffee
004b
004f
fffb
ffe6
ffe3
0014
fffc
0000
fff7
0009
0001
000d
fffd
0017
ffc0
0050
000d
0037
ffc5
ffe0
fff6
ffae
ffaa
0067
0079
009c
ffd9
ff84
ffce
ff8e
ffc1
0019
0058
ffd6
ff76
ffc6
0031
008b
fff4
ffe4
ffe1
ffff
000b
000d
fffa
0000
0003
ffb0
ff7b
ff99
00dc
00ff
008f
ff7f
ff82
ffce
ffa4
ff33
ffca
0078
01f0
00d1
ffba
fec4
ff61
0019
005d
fff9
0033
ff95
0052
ffca
005b
0038
ffc5
ffbc
fffb
0032
0052
000a
fffb
fff0
0020
0017
003f
000d
fff9
fff4
000d
ffbf
0017
0019
ffec
fffc
0004
000c
ffc2
ffe2
002e
0025
0011
0000
0001
0003
fff8
0000
0008
0003
0008
0005
fffe
001b
001b
0011
003a
002a
fffb
001a
000b
000d
fffd
0013
ffff
0004
fffe
0002
fff3
0005
0001
fffb
0001
0003
0000
0009
0006
000c
0007
ffff
0001
0003
fffb
0004
000a
0002
fffd
0002
fff6
0003
ffff
0000
0011
fffe
fffc
ffef
fff6
0002
fffe
0004
fffe
fff8
fffa
0002
fff8
fff4
ffdb
fff5
fffc
000f
0061
0068
0011
0071
0068
0002
0000
0003
000d
0000
000f
000d
000a
0006
0008
0005
0010
0002
fff4
fff9
0002
fff7
fff4
fff3
fff5
fff4
000d
001a
000a
fffa
0008
ffff
0000
fff9
0002
0003
0000
0006
0003
0000
0001
0000
fff3
0000
0000
fffc
0004
0003
0001
0002
0002
0007
0002
0009
0008
0004
0000
0004
0005
ffbc
ffc2
ffd7
ffb5
ffad
ffc5
ffd4
ffb9
ffd8
000a
fffb
0000
000a
ffff
0005
0000
fff4
0007
ffd6
00d8
ff54
ff87
ffb1
010b
0052
ff73
0022
001e
0099
ff59
ff72
00b0
0014
ffee
ff9d
003a
ffe3
0008
001e
002c
ff73
0046
0019
fff6
ffde
ffbe
0074
ffc7
ff5b
0016
0095
0080
fee7
009d
ffc4
0066
0001
ffae
011c
ff79
ffc7
000e
ffd6
0007
000e
fff3
fffb
fff9
0018
ffed
0001
ffff
ffec
ff50
0076
ff39
024f
fe5c
011f
fe69
009a
0027
000b
ffbb
ff96
00c0
ffec
ffbe
ffc8
003d
0034
ff6c
004f
00c2
ffed
ff69
ff6f
0120
ff76
fff7
fffc
ffec
0001
0000
000e
fff9
0003
ffde
0036
ff57
0044
004d
0052
ff90
ff87
0088
ffe3
001b
ff91
002f
ff85
0160
ff19
0023
ff4e
0091
ffcb
0079
ffd1
0056
ff11
00ba
ffbe
008f
ffa9
0055
ff3f
00ae
0056
003b
fee8
ff9b
00a4
ffde
0039
0026
ffb3
0038
006b
ffff
ff75
0027
0037
ffca
fff0
0023
0037
ffb1
0011
fff2
002b
ffed
ffe8
ffcf
ffe3
ffa0
ff85
ffa5
ffeb
ffa9
ffce
ffbd
fff3
0047
ffae
fff9
0078
ffbc
ffeb
0036
001f
0005
fffd
0024
ffee
ffce
0029
fff9
ffe6
ffe7
000a
000f
0003
fff8
ffff
0010
ffeb
ffea
ffdf
fffd
000f
ffbd
001d
0027
ffe7
0000
002f
0008
0000
fffc
0035
fff8
ffcc
002f
fffc
ffd4
fffe
0002
0007
ffdf
0018
000b
ffc7
0001
000e
ffcd
fff6
0033
ff9b
000c
009b
ff8a
ffdd
006c
fffa
fff5
0001
ffee
0005
0015
fff3
001c
002d
001a
fffb
fffa
0021
fff9
ffed
0015
fffa
ffed
ffe6
fff1
0014
ffeb
fffc
0038
ffd7
ffe6
002d
000a
0002
fffc
ffe6
000a
0018
ffff
0001
0002
ffff
0001
000b
0010
fff3
ffe8
0007
0004
0001
0028
003a
001d
0050
0081
0051
003e
0067
0036
001d
000e
ffe6
0020
fff7
ffe1
0000
ffe0
ffb7
fff7
0009
0000
0005
0012
ffdc
fff5
0019
0002
0008
0000
0004
0016
fff0
fff8
fff7
fffe
fffc
0034
0050
0044
ffa5
ff7b
ff8c
0020
003a
0027
fffd
ffde
fff5
0021
002c
0023
0001
fffe
fffb
003b
008f
0029
ff9f
ff16
ffb3
001a
0046
0004
fff2
ffff
000a
001e
000e
fff7
fff8
fffe
fffe
fffe
ffe4
fff7
0006
0013
0002
0000
fff0
fff6
001f
000b
ffef
ffeb
0051
002b
0004
ffd8
0000
0024
0040
0031
fffa
ffd1
ffdf
fff7
ffc5
0000
ffb8
ff3f
ffb0
0070
0101
0063
ffca
ff8e
ffca
0007
001c
0015
ffe7
ffde
ffe8
000a
0001
0005
0012
001d
0008
ffe0
ffd1
ffdd
0010
0024
000c
fff5
ffc4
fff4
ffbe
ff14
ff80
0027
00ab
0060
003a
00a7
004c
ffe5
0000
ffe9
001c
0003
0016
fff9
fff7
0004
ffe5
fff1
fffb
0013
001b
000a
0005
0008
0015
ffc1
ffd7
ffb4
0039
0042
002f
fff4
ffcc
ffe2
000c
0008
0014
0004
0009
0004
0002
ff06
00dc
ffc4
00bf
ffa0
ffe6
0086
ffb6
ff93
00cd
ff97
0015
004b
ff80
0022
ff75
0037
002d
ffbd
0037
fff8
ffb2
004a
ffe7
0054
ffd4
0000
00b8
ff2c
0066
fef9
0067
003b
ff55
0065
002b
002f
ff87
ff0f
021c
fefa
0025
fef2
011a
0013
ffe5
0017
ffe4
ffce
0026
fff7
0029
ffec
0046
0038
ffe2
0001
00c1
ff3c
ffcc
0077
ffac
0001
0000
005c
000f
0063
ff46
0043
ffac
0009
0000
ff28
00bb
ff68
012b
ff81
ffe5
008e
ffa2
0017
000f
fff8
001e
ffec
000d
0011
0001
0018
ff7d
00b4
ffc2
0050
fff7
ffa9
0043
ff25
009d
ffdf
ffce
0056
ffd4
00e0
ff29
0027
ffca
0042
fff7
0048
ffc0
001a
ff62
0091
ffe6
0037
ffd4
000c
00cb
ff24
0055
ff23
0061
0019
ffa7
004c
006b
0054
ffae
fffc
ffd0
0041
0013
ff71
007a
001d
ffd5
fff7
0000
ff92
0040
fff3
0002
001b
000a
004a
ffc6
ffef
0064
ff9c
ffdd
0035
ffc7
fff6
003b
ffb8
fff4
0074
ff7d
ffe6
006a
ff99
ffe7
0031
ffe9
ffe1
000c
0000
ffe9
fffa
001a
ffee
001d
0001
0003
001e
ffd0
002b
ffe6
ffe2
fff8
003e
ffd0
ffdc
0113
fef7
ffc8
00bd
ff6d
fff6
0026
ffed
ffe1
0012
ffeb
ffdf
0003
000c
ffce
0048
ffed
ffd1
0171
feee
fff3
011a
fed7
ffea
0049
ffbf
0008
009a
ff83
000b
00aa
ff65
0003
fff5
ffdc
0009
ffe3
0019
ffdc
0023
fffb
fff1
0001
0016
ffed
ffe8
0020
fff0
ffd0
001c
0018
ff8f
004f
0002
ffae
006c
0008
ffb3
0046
0000
0010
fff1
ffeb
0036
fff4
fffc
004b
ffc5
fff9
fff0
0009
0002
ffe1
000e
0013
ffd3
001d
fffe
ffb3
004e
ffed
ff5c
00a5
0024
ff7f
0034
ffeb
ffcb
0092
ffde
ffd2
0061
0004
ffb8
0031
fffb
ffeb
003e
fff8
ffc5
004f
fff9
ffc2
004e
ff9e
0083
006d
0046
feab
0043
ffff
0090
ff99
ff96
0072
0049
0026
ff7f
0057
0028
ffc9
ffe2
0021
ffcb
0033
0009
000d
ffb6
ffcb
0030
0009
ffbc
002d
005d
0076
fe44
00e7
ffb6
009b
ffb3
ffbf
00d9
ffd6
fff7
ffb2
0022
0008
ff8c
0051
ffff
fff9
001d
0014
ffd0
ffca
ffd1
002a
000c
000e
00a4
fee2
00df
fe39
00f0
ff79
0063
0027
ffec
0082
ffef
ffa6
ff9a
00a5
0018
ff9d
fffc
003d
ffba
ffa1
ff65
01e3
ff2c
0034
ff72
005a
ffdd
0010
fff5
fffc
ffee
ffe7
fffb
001c
ffe7
0060
0060
ff1e
ff4a
0083
0037
0042
ff89
004f
0038
004e
ff69
ff9b
ff5b
00de
000a
0026
ffe1
ffae
fff3
006b
0023
004e
ff7d
0011
ffaa
001e
0066
ffdf
ff48
ffc6
0160
ffc5
0008
ff8d
0070
001e
001d
002d
ffd5
002c
0019
000d
ffa2
0019
0002
ffd8
002c
fffe
0037
ffbc
ffd5
003f
0018
ffff
fffa
0016
fff1
0001
fff3
fffe
ffed
0019
fffd
fff7
0004
ffe6
ffd7
ffe4
0019
001f
0019
fffc
ffef
fff2
0023
002d
001b
fff6
ffef
fff2
fff4
ffe6
fffb
002c
000a
0015
0001
0046
0041
fffb
fff9
0000
fffc
fffe
0004
0002
fff8
0000
fff7
ffeb
fff5
0009
0018
0019
ffff
ffef
fffd
fffc
0000
fffd
0000
ffe7
ffee
0000
0004
fffd
0032
0030
0028
ffda
ffc4
ffcc
0002
fff1
fff7
002b
004b
0032
0004
001c
0026
000d
ffed
fff5
fffc
fffe
fffc
0004
000f
0014
ffec
fff7
0000
002d
0039
0019
ffce
ffca
ffea
0009
0004
fffd
0017
0047
001f
0013
0011
0014
0005
0013
000b
0013
0010
000e
0030
0067
003a
0010
0029
0018
fffe
0016
0000
fff9
ffed
0011
fff3
0007
fff3
fff1
ffef
ffe0
001d
001e
fffd
0040
0048
0027
0019
000e
000a
fffd
fffb
fff0
0005
fffe
ffee
0005
0000
0000
0003
fffd
fff9
0000
fff7
0000
fffa
fff3
ffef
0001
ffeb
ffe2
fffb
fff8
fff6
001d
fff3
001e
0003
ff3f
ffb4
0043
ff9a
ffde
fffd
0004
0007
0001
0000
0000
0006
0001
0005
fffc
0000
fffa
fffd
0003
ffff
fffc
0004
0004
ffda
002c
ffde
0021
00f4
005a
ffc4
0065
fff9
0000
fff7
0002
fffd
fffe
0003
fffe
ffff
0000
ffd5
000b
0008
000b
002c
002b
0000
000d
0000
ffff
0001
0005
0004
0004
000e
0007
fff9
0007
0000
000e
001f
ffe8
ff7f
ffa1
0010
ff87
ff9e
ffff
000b
fff8
001e
0037
0015
0018
0021
0004
0000
0000
0007
0000
fffc
0001
0003
0001
0001
fffa
0005
0000
0003
0004
0004
0004
fffb
0002
fffc
fffb
ffff
0003
0000
fffc
0000
ffff
fffd
0002
0011
fff6
fffa
0014
fff7
ffe4
ffef
ffeb
fff7
ffea
ffd3
ffdd
fff9
0000
ffcf
002c
0032
ffec
ffc3
fff4
0020
0059
003a
0013
ffc0
ffaf
ffd3
ffc5
ffcc
0079
008e
005c
ff9d
ffba
ffe6
0011
0014
fffe
ffef
ffea
000d
0012
0004
0007
0006
ffbf
ffc5
0040
0120
007d
ffb9
fef4
ff88
0001
ffec
fffc
0000
0012
0046
0016
000c
ffea
fff5
0007
0006
ffec
ffe5
fffd
0026
0000
0002
0002
0008
0003
002c
005d
ffcd
fff0
ffaa
0050
fffe
ffc6
ffe5
0014
ffeb
ffde
002c
0027
0042
fffa
001a
001a
ffb3
ff03
ff83
000f
00bd
003c
fffa
fff7
fffa
0007
001e
0003
ffee
fff4
ffef
fffa
0036
002b
ffec
ff91
ff88
0027
005a
0049
fffa
0037
0036
fffc
ff42
fee8
ffc7
0005
0072
000c
0000
fff4
000f
008f
0094
0042
00a2
0035
fffa
001a
0000
fff5
ff8d
ffa5
000e
005a
0061
0019
0014
ffe8
0010
0015
0019
ffbf
0010
0007
fff9
ffdc
ffd1
000e
000d
0035
000f
ffe9
0002
fff1
ffe8
0002
0014
003a
ffcd
0001
ffdd
0025
ffcb
fff4
ffeb
006f
009a
0068
ffa0
ff8a
ff94
002f
003f
0028
ff9c
ff7e
ffad
0021
0025
0037
004e
007b
001f
005c
0009
0010
ff59
fef2
ff7e
0000
0006
fff0
0009
ffec
fff1
0024
0000
000d
0033
002e
0029
fff1
fff1
ffff
fffd
0010
fff9
fffa
0007
000b
ffe6
ffde
fffa
ffe7
0009
0023
ffa4
ffa8
ff91
00a2
00ef
008e
ffb7
ffbf
ffb3
ffce
fefe
ff95
0009
0004
0007
0068
0041
0006
fff0
ffe5
fffc
000f
0027
0020
0000
fffe
000b
ff8a
ffab
ffd3
007c
0095
0045
fff5
fff4
ffdd
ffc1
ffe4
ffe9
0050
0076
0049
ffd7
ffc7
ffb6
0013
fff9
fff1
0004
ffc6
fff4
ffd5
ffed
ffc4
0016
001e
0016
ffeb
ffdf
0017
ffeb
0008
ffe0
00c5
00ef
007c
fff7
0018
ffcc
ff36
ff56
ff8e
0000
000c
ffe8
fff5
ffcb
ffeb
ffec
001c
001f
fffd
ffff
0000
0001
0000
fffd
0000
fffa
fffd
ffff
fff7
fffb
fff9
fff2
fff8
fffd
0000
0007
000b
fffe
0007
fffd
ffe5
ffe7
000b
ffed
fff5
0002
0002
0002
ffff
0001
fffc
fffb
0002
fffe
0000
0000
0001
0000
0003
0002
ffff
0004
0004
0000
fff6
fffc
fff7
ffbf
ffe4
fffe
ffdb
ffef
0000
0001
ffff
0003
0003
0001
0002
0000
0001
fffc
fffc
fffb
0001
fff6
fffa
0001
fffb
fffd
0000
0000
ffff
0002
0002
fffe
0000
ffff
fff9
0006
0013
0008
fffe
ffab
ffaf
ffed
ff89
ff98
0006
0005
0006
0009
0006
000c
0010
000d
000f
0004
0007
0006
0002
0002
0000
fffe
0004
0002
0001
0003
ffff
0001
0004
0001
0000
0000
fffd
0002
0000
fffe
0002
fffe
fffd
0002
fffc
fffc
0008
ffff
0001
fff7
fff9
0000
fffd
0000
0006
fff2
ffea
ffe5
fff9
0080
0079
ffe4
008f
0087
000d
0032
fff7
0004
0004
ff98
0007
0009
ffab
ffd7
0002
ffdb
ffe2
000a
ffee
fff6
0026
0009
fffb
0008
0013
fff4
0007
002c
ffe4
ffec
fff1
ffd8
ffff
fffa
0014
fff2
0000
0016
0048
004c
fff4
0024
fff0
fff2
0037
ffe1
0000
fffe
0002
000b
fffe
0007
0002
ffef
000c
fff4
ffe1
ffed
0008
0018
fffa
000e
0004
ffe6
fffd
0013
ffd6
ffea
000b
fffa
ffeb
000c
0001
001c
0035
002b
fffc
fff7
000e
ffd3
001d
002c
000a
fff1
0020
fff9
0006
0002
fffa
fff8
ffec
000e
0006
ffee
fff8
fffb
0000
fffe
fffd
0007
000c
fff5
fff0
0000
0009
fffe
ffef
001e
001c
0021
002b
000a
ffe9
fffc
0000
0002
0009
000e
000c
0026
0033
001c
fffb
ffe7
0016
ffe0
ffba
000f
ffea
ffb3
ffd3
ffd7
ffd4
ffc8
ffcd
ffcc
fffa
fff9
ffcb
fffb
0005
0000
fffc
0005
000a
fffb
fffb
fffe
0003
0005
0008
ffef
0010
0006
fffe
fffe
000a
fff6
ffbd
ffbf
001f
000c
0009
0021
0018
001e
ff84
fdcd
ff06
fff9
ffb9
ffe0
0099
023b
012c
ffff
fff3
0003
fff5
ffe3
fffb
ffef
ffea
fffb
000e
0000
0010
0001
fffc
ffed
0009
0003
fff8
00a1
02c2
00ee
0014
0071
005f
fef7
fd46
fe91
0000
0015
0005
fff5
000f
fff3
0000
0014
0004
0045
0074
0047
ffd6
ffe0
ffc0
ffca
ffe9
ffc9
fffd
ffec
fffd
ffdf
ffd4
ffeb
ffe9
ffec
fffe
ff82
ffc9
ffdd
fffd
0023
0014
0042
003a
fff0
0033
0065
0042
0021
001f
0021
ff9b
ff61
ffa1
0003
0002
fffb
000b
0010
0007
0009
000c
0005
0001
fff7
0005
fff3
ffff
fff7
fff5
fff1
fff0
0004
fff0
0002
0009
0001
0002
0005
fff2
000b
0000
ffff
ffdb
0022
0010
ffe7
000e
fff6
ffd8
ffaf
ffec
0035
ffdf
ffdb
ffe7
0036
0000
ffe6
02b7
0194
017d
02f6
0135
03bd
ff95
026e
016d
017b
0150
0131
0268
0264
0252
0086
01cf
018c
0022
0274
0109
01d7
0150
0122
010c
0158
02a1
005b
014c
01b6
ffdb
042d
0006
000d
fffa
ffee
fff7
0008
0010
fff7
fff9
0007
0004
ffc4
001a
fffd
000e
ffaa
0005
fffe
ffeb
fff5
0022
0004
ffff
fff8
fffb
000e
0011
0001
0000
0000
ffe1
0001
ffff
0002
0006
fff7
fffb
fffe
0001
ffff
fffb
fff3
0040
ff89
003d
0003
0006
0003
0006
fff8
ffea
0000
ffef
fff7
0006
fffc
0002
ffee
0006
ffff
0014
fffb
fff9
ff72
0004
0004
fffb
ffe5
0002
0004
fffd
0012
fff2
0004
ffff
ffdb
002c
ffee
0005
0048
ffff
0000
fff8
0005
ffbe
000d
fff3
ffff
0005
000d
0003
0000
0015
fff9
ffe7
0002
0010
0016
0002
0018
ffcd
0010
fffe
001f
0009
0002
fffb
0001
0004
0025
ffda
0003
fffd
ffe9
0008
ffcb
0009
fffd
0020
000b
ffca
fffd
fffd
ffe9
0003
fffa
fff1
fffd
003b
0038
fffc
ffae
ffd8
0045
ffff
ffc6
ffb3
0000
ffff
fff8
0001
0007
ffbe
0009
fffb
ffcc
0011
ffeb
ffee
fff8
0015
ffbc
ffd7
0000
ffff
ffc8
0007
fffe
0003
0000
ffea
fffe
0008
fffd
0000
ffeb
ffff
0007
0005
0008
fffe
000a
000a
fff1
000a
fffe
0001
ffd8
0018
000b
0002
ffd8
fff4
000c
0006
ffe0
0000
ffd8
0002
fffd
ffd1
fffd
fff8
000d
0001
fffd
ffff
0001
0010
0004
fff0
0000
0001
0001
002c
fff5
0005
000d
0013
000d
ffcd
fff2
0019
0004
ffec
ffce
ffe8
ffe0
0018
0020
000e
fffb
0080
0004
fff9
ffed
fff8
ffe4
ffeb
fff5
fff5
ffeb
ffe1
fffc
0003
0003
0001
ffe4
fff7
fffe
fffc
000a
0013
ffe8
fffe
000f
ffe8
fff4
fff4
0020
fffb
000a
0009
fffa
fff9
0001
0004
000c
ff68
fffd
ffff
0002
fff2
0000
0005
0067
ffa4
001d
ffe3
0000
0001
ffcc
fff5
0001
0000
0002
0007
fffa
0000
fffd
0002
fffe
fff3
0000
fffd
fffe
0000
003f
ffd6
ffd5
fffa
0037
ffec
ffcd
0004
0023
003a
fffb
0005
fffa
fffe
ffea
fffa
0007
0004
001a
0003
ffe6
000b
000a
ffe2
002f
fff2
0009
0006
0020
fffd
0000
0010
0005
ffc1
ffc9
fffe
ffcb
0034
ffc0
fffe
ffd9
ffd5
fffc
0003
0002
fffa
ffbc
003e
0008
fffe
0029
0021
002b
fffb
fffb
ffbe
ffe3
0037
0006
fffe
0024
fffe
fffc
fff8
0003
ffff
0007
005a
fffd
fffb
0000
fff9
0000
0001
ff91
0042
001e
ffdb
fffe
0001
ffbe
fffb
0000
fffc
0000
000e
fffc
0000
0000
0003
000b
fff2
0004
fffe
0003
fff9
ffab
fffb
0014
0002
000a
ffb6
fff3
0000
001c
fffd
0001
0001
0004
0001
0021
ffd0
fffd
fffc
ff8b
000e
ffb2
0004
ffa6
001b
0003
ffb5
ffb8
fffb
ff90
fff1
0003
ffd8
0003
fffe
000c
0002
0011
001d
0003
0002
0006
000a
fffc
fffa
fff2
0000
000e
0008
0006
ffff
fff2
fff6
001a
ffff
ffe0
000f
fffb
0010
ffb8
0009
fff9
fff2
fffa
0024
0001
ffb9
ffe1
0005
0004
0004
ffc0
fffe
0003
0011
0005
0000
fffe
fffc
ffd2
000d
0001
fffa
ffad
0009
0011
0004
ffa8
ffd3
0008
0006
ffa8
0000
ffb5
fff5
0004
ffea
fffa
ffcd
000d
0002
0000
fff2
ffeb
ffff
0001
0001
0006
0007
0003
ffc5
fff9
0002
0009
0000
ffdf
0020
fff6
fff3
ffe4
fff2
ffff
ffea
0034
fffd
ffec
fed4
ffff
0018
0008
0003
0004
0000
0005
0003
0006
0003
0003
0008
0001
0001
000b
000d
0002
0005
fffa
0008
0003
000b
0006
0002
0007
0002
0006
0005
0011
ffff
0003
000d
0001
fffb
ffff
ffe8
ffde
0000
ffe8
ffef
ffe6
0003
ffd8
ffdf
fffb
fffd
ffe6
ffe8
fff9
ffe0
0011
fffe
fff3
0017
0000
ff21
0000
fff3
ffed
fffa
0011
fff5
ffef
0000
0003
ffed
fffd
ffff
0000
0002
0000
0000
0000
0049
0000
ffff
0000
0000
0001
ffff
0000
0000
0000
002f
ffff
0022
ffff
0000
fffe
0000
ffff
0000
0001
ffc8
ffff
0000
ffdb
0000
0000
0002
0000
002c
ffff
0002
0003
ffeb
0002
fffd
ffa4
ffd5
fffc
fff8
ffff
0003
ffea
ffef
0000
fffa
0003
fff7
0001
0001
ffff
0002
0001
fff8
ffff
fffd
0000
fffc
0008
0000
0003
0001
ffff
ffff
0001
ffff
0001
fffc
0002
0001
002e
ffe4
0002
fffe
0012
0000
fffd
000d
ffff
ffea
fffc
0000
0000
fffe
0004
0008
ffff
fffd
fffd
0001
0000
fffc
fff9
fff5
0001
ffff
fff8
0003
fffc
0000
fff7
0000
000e
ffe2
fffc
fffd
ffce
0004
0000
0009
0000
002f
fffd
fffb
fffd
0003
0011
0000
fffe
fff7
fffa
fff5
0002
0000
0003
fff8
0002
ffff
0001
ffe3
ffff
0003
fff6
0034
fff4
fff7
0001
0001
0000
ffe2
0001
fffa
0000
0000
ffff
ffff
fffd
0001
0000
ffee
0003
0006
0003
0006
ff90
0000
0000
0000
0000
0000
0000
0036
0000
0000
fffe
ffff
fffe
0000
0000
0001
ffff
ffd8
0000
0000
0000
fffe
0000
0000
0000
0001
0002
0031
ffff
0000
ffd5
fffb
0000
ffff
0001
fff7
ffff
fffd
0000
fff2
ffff
0000
fff7
ffa2
fff0
0007
0000
fffe
0000
ffef
fffe
fff4
ffff
fffc
0000
0001
0000
ffff
fffb
fffb
ffff
0004
fffd
0008
0036
0000
0000
0007
0000
0000
fffe
0005
0006
0000
0008
0002
fff9
fff8
0003
0006
002a
000e
fffd
ffec
fffe
0015
ffff
0003
0000
ffff
0001
fffb
fffc
fffb
0002
fff0
0000
0003
fffe
ffaa
fffe
0004
0004
ffec
0003
ffff
002d
0004
fff5
fffc
0000
0005
ffeb
ffee
0000
fff8
0000
fff7
0003
0001
ffff
0000
fffc
ffee
fffe
ffff
fff9
fffe
ffdc
0000
0000
0000
0000
0000
0000
ffde
ffff
0000
0000
0000
0000
fffd
ffff
ffff
fffd
002d
ffff
0010
0000
fffe
0000
0000
0000
0000
ffff
0024
ffff
0002
0045
0000
0002
fffb
fffd
fffd
0000
fffa
fffb
0004
ffff
0001
0004
fff3
ff98
0043
fffa
fff9
fff3
0005
fffb
0001
fffe
fffc
fff9
fffc
0001
fffc
0014
0006
fffa
ffe6
fffb
fff7
fffe
0004
0001
ffff
0000
0001
0001
0011
ffee
ffff
0000
ffff
ffea
fffa
0003
fff4
fffe
0008
0003
0005
0004
ffea
0005
0005
0000
0001
001f
000a
0000
ffed
fffc
0001
0000
fff9
ffeb
fff8
ffbe
ffdc
fff4
ffff
ffad
ffb2
fff5
0003
0005
0008
ffcf
fff6
fff0
0000
000c
0004
ffd6
fff3
0005
ffd0
ffc0
ffe5
0007
0001
000e
0008
fffe
0017
0006
fffd
fffc
fffc
ffff
fffe
fffd
0008
fffe
0000
fffd
fffe
0003
fffa
fffd
fffd
fff5
0002
fffc
ffc1
0000
fff5
fffd
fffe
0000
fffe
fffa
fffa
fffd
0003
ffff
0001
fffe
